{
  "<PAD>": 0,
  "<UNK>": 1,
  "<BOS>": 2,
  "<EOS>": 3,
  "<USER>": 4,
  "<ASSISTANT>": 5,
  "<SYSTEM>": 6,
  "<TOOL>": 7,
  "<THOUGHT>": 8,
  "<0x00>": 9,
  "<0x01>": 10,
  "<0x02>": 11,
  "<0x03>": 12,
  "<0x04>": 13,
  "<0x05>": 14,
  "<0x06>": 15,
  "<0x07>": 16,
  "<0x08>": 17,
  "<0x09>": 18,
  "<0x0A>": 19,
  "<0x0B>": 20,
  "<0x0C>": 21,
  "<0x0D>": 22,
  "<0x0E>": 23,
  "<0x0F>": 24,
  "<0x10>": 25,
  "<0x11>": 26,
  "<0x12>": 27,
  "<0x13>": 28,
  "<0x14>": 29,
  "<0x15>": 30,
  "<0x16>": 31,
  "<0x17>": 32,
  "<0x18>": 33,
  "<0x19>": 34,
  "<0x1A>": 35,
  "<0x1B>": 36,
  "<0x1C>": 37,
  "<0x1D>": 38,
  "<0x1E>": 39,
  "<0x1F>": 40,
  "<0x20>": 41,
  "<0x21>": 42,
  "<0x22>": 43,
  "<0x23>": 44,
  "<0x24>": 45,
  "<0x25>": 46,
  "<0x26>": 47,
  "<0x27>": 48,
  "<0x28>": 49,
  "<0x29>": 50,
  "<0x2A>": 51,
  "<0x2B>": 52,
  "<0x2C>": 53,
  "<0x2D>": 54,
  "<0x2E>": 55,
  "<0x2F>": 56,
  "<0x30>": 57,
  "<0x31>": 58,
  "<0x32>": 59,
  "<0x33>": 60,
  "<0x34>": 61,
  "<0x35>": 62,
  "<0x36>": 63,
  "<0x37>": 64,
  "<0x38>": 65,
  "<0x39>": 66,
  "<0x3A>": 67,
  "<0x3B>": 68,
  "<0x3C>": 69,
  "<0x3D>": 70,
  "<0x3E>": 71,
  "<0x3F>": 72,
  "<0x40>": 73,
  "<0x41>": 74,
  "<0x42>": 75,
  "<0x43>": 76,
  "<0x44>": 77,
  "<0x45>": 78,
  "<0x46>": 79,
  "<0x47>": 80,
  "<0x48>": 81,
  "<0x49>": 82,
  "<0x4A>": 83,
  "<0x4B>": 84,
  "<0x4C>": 85,
  "<0x4D>": 86,
  "<0x4E>": 87,
  "<0x4F>": 88,
  "<0x50>": 89,
  "<0x51>": 90,
  "<0x52>": 91,
  "<0x53>": 92,
  "<0x54>": 93,
  "<0x55>": 94,
  "<0x56>": 95,
  "<0x57>": 96,
  "<0x58>": 97,
  "<0x59>": 98,
  "<0x5A>": 99,
  "<0x5B>": 100,
  "<0x5C>": 101,
  "<0x5D>": 102,
  "<0x5E>": 103,
  "<0x5F>": 104,
  "<0x60>": 105,
  "<0x61>": 106,
  "<0x62>": 107,
  "<0x63>": 108,
  "<0x64>": 109,
  "<0x65>": 110,
  "<0x66>": 111,
  "<0x67>": 112,
  "<0x68>": 113,
  "<0x69>": 114,
  "<0x6A>": 115,
  "<0x6B>": 116,
  "<0x6C>": 117,
  "<0x6D>": 118,
  "<0x6E>": 119,
  "<0x6F>": 120,
  "<0x70>": 121,
  "<0x71>": 122,
  "<0x72>": 123,
  "<0x73>": 124,
  "<0x74>": 125,
  "<0x75>": 126,
  "<0x76>": 127,
  "<0x77>": 128,
  "<0x78>": 129,
  "<0x79>": 130,
  "<0x7A>": 131,
  "<0x7B>": 132,
  "<0x7C>": 133,
  "<0x7D>": 134,
  "<0x7E>": 135,
  "<0x7F>": 136,
  "<0x80>": 137,
  "<0x81>": 138,
  "<0x82>": 139,
  "<0x83>": 140,
  "<0x84>": 141,
  "<0x85>": 142,
  "<0x86>": 143,
  "<0x87>": 144,
  "<0x88>": 145,
  "<0x89>": 146,
  "<0x8A>": 147,
  "<0x8B>": 148,
  "<0x8C>": 149,
  "<0x8D>": 150,
  "<0x8E>": 151,
  "<0x8F>": 152,
  "<0x90>": 153,
  "<0x91>": 154,
  "<0x92>": 155,
  "<0x93>": 156,
  "<0x94>": 157,
  "<0x95>": 158,
  "<0x96>": 159,
  "<0x97>": 160,
  "<0x98>": 161,
  "<0x99>": 162,
  "<0x9A>": 163,
  "<0x9B>": 164,
  "<0x9C>": 165,
  "<0x9D>": 166,
  "<0x9E>": 167,
  "<0x9F>": 168,
  "<0xA0>": 169,
  "<0xA1>": 170,
  "<0xA2>": 171,
  "<0xA3>": 172,
  "<0xA4>": 173,
  "<0xA5>": 174,
  "<0xA6>": 175,
  "<0xA7>": 176,
  "<0xA8>": 177,
  "<0xA9>": 178,
  "<0xAA>": 179,
  "<0xAB>": 180,
  "<0xAC>": 181,
  "<0xAD>": 182,
  "<0xAE>": 183,
  "<0xAF>": 184,
  "<0xB0>": 185,
  "<0xB1>": 186,
  "<0xB2>": 187,
  "<0xB3>": 188,
  "<0xB4>": 189,
  "<0xB5>": 190,
  "<0xB6>": 191,
  "<0xB7>": 192,
  "<0xB8>": 193,
  "<0xB9>": 194,
  "<0xBA>": 195,
  "<0xBB>": 196,
  "<0xBC>": 197,
  "<0xBD>": 198,
  "<0xBE>": 199,
  "<0xBF>": 200,
  "<0xC0>": 201,
  "<0xC1>": 202,
  "<0xC2>": 203,
  "<0xC3>": 204,
  "<0xC4>": 205,
  "<0xC5>": 206,
  "<0xC6>": 207,
  "<0xC7>": 208,
  "<0xC8>": 209,
  "<0xC9>": 210,
  "<0xCA>": 211,
  "<0xCB>": 212,
  "<0xCC>": 213,
  "<0xCD>": 214,
  "<0xCE>": 215,
  "<0xCF>": 216,
  "<0xD0>": 217,
  "<0xD1>": 218,
  "<0xD2>": 219,
  "<0xD3>": 220,
  "<0xD4>": 221,
  "<0xD5>": 222,
  "<0xD6>": 223,
  "<0xD7>": 224,
  "<0xD8>": 225,
  "<0xD9>": 226,
  "<0xDA>": 227,
  "<0xDB>": 228,
  "<0xDC>": 229,
  "<0xDD>": 230,
  "<0xDE>": 231,
  "<0xDF>": 232,
  "<0xE0>": 233,
  "<0xE1>": 234,
  "<0xE2>": 235,
  "<0xE3>": 236,
  "<0xE4>": 237,
  "<0xE5>": 238,
  "<0xE6>": 239,
  "<0xE7>": 240,
  "<0xE8>": 241,
  "<0xE9>": 242,
  "<0xEA>": 243,
  "<0xEB>": 244,
  "<0xEC>": 245,
  "<0xED>": 246,
  "<0xEE>": 247,
  "<0xEF>": 248,
  "<0xF0>": 249,
  "<0xF1>": 250,
  "<0xF2>": 251,
  "<0xF3>": 252,
  "<0xF4>": 253,
  "<0xF5>": 254,
  "<0xF6>": 255,
  "<0xF7>": 256,
  "<0xF8>": 257,
  "<0xF9>": 258,
  "<0xFA>": 259,
  "<0xFB>": 260,
  "<0xFC>": 261,
  "<0xFD>": 262,
  "<0xFE>": 263,
  "<0xFF>": 264,
  "<0x69><0x6E>": 265,
  "<0x6F><0x6E>": 266,
  "<0x20><0x61>": 267,
  "<0x6F><0x72>": 268,
  "<0x74><0x69>": 269,
  "<0x65><0x72>": 270,
  "<0x20><0x74>": 271,
  "<0x65><0x73>": 272,
  "<0x20><0x73>": 273,
  "<0x20><0x6D>": 274,
  "<0x61><0x6E>": 275,
  "<0x74><0x69><0x6F><0x6E>": 276,
  "<0x61><0x72>": 277,
  "<0x69><0x73>": 278,
  "<0x65><0x6E>": 279,
  "<0x20><0x63>": 280,
  "<0x20><0x64>": 281,
  "<0x65><0x6D>": 282,
  "<0x20><0x61><0x6E>": 283,
  "<0x69><0x6E><0x67>": 284,
  "<0x61><0x6C>": 285,
  "<0x20><0x66>": 286,
  "<0x68><0x65>": 287,
  "<0x65><0x64>": 288,
  "<0x20><0x70>": 289,
  "<0x72><0x6F>": 290,
  "<0x20><0x61><0x6E><0x64>": 291,
  "<0x20><0x69><0x6E>": 292,
  "<0x69><0x63>": 293,
  "<0x20><0x74><0x68><0x65>": 294,
  "<0x65><0x6C>": 295,
  "<0x20><0x6C>": 296,
  "<0x20><0x20>": 297,
  "<0x20><0x69><0x73>": 298,
  "<0x69><0x74>": 299,
  "<0x61><0x74><0x69><0x6F><0x6E>": 300,
  "<0x20><0x63><0x6F>": 301,
  "<0x20><0x6D><0x65><0x6D>": 302,
  "<0x20><0x62>": 303,
  "<0x20><0x77>": 304,
  "<0x20><0x6E>": 305,
  "<0x6D><0x70>": 306,
  "<0x61><0x74>": 307,
  "<0x20><0x72>": 308,
  "<0x6C><0x65>": 309,
  "<0x75><0x74>": 310,
  "<0x6F><0x72><0x6D>": 311,
  "<0x65><0x74>": 312,
  "<0x65><0x63>": 313,
  "<0x65><0x6E><0x74>": 314,
  "<0x71><0x75>": 315,
  "<0x20><0x63><0x6F><0x6D><0x70>": 316,
  "<0x69><0x64>": 317,
  "<0x20><0x54>": 318,
  "<0x65><0x73><0x73>": 319,
  "<0x61><0x63>": 320,
  "<0x20><0x65>": 321,
  "<0x20><0x73><0x65>": 322,
  "<0x61><0x67>": 323,
  "<0x20><0x6F>": 324,
  "<0x20><0x66><0x6F><0x72>": 325,
  "<0x20><0x63><0x6F><0x6E>": 326,
  "<0x63><0x68>": 327,
  "<0x20><0x6D><0x65><0x6D><0x6F>": 328,
  "<0x73><0x69>": 329,
  "<0x75><0x72>": 330,
  "<0x20><0x70><0x72><0x6F>": 331,
  "<0x72><0x61>": 332,
  "<0x20><0x74><0x6F>": 333,
  "<0x6F><0x77>": 334,
  "<0x65><0x72><0x73>": 335,
  "<0x73><0x74>": 336,
  "<0x20><0x64><0x65>": 337,
  "<0x76><0x69><0x64>": 338,
  "<0x6F><0x72><0x79>": 339,
  "<0x20><0x4F>": 340,
  "<0x20><0x69><0x6E><0x74>": 341,
  "<0x63><0x65>": 342,
  "<0x6F><0x64>": 343,
  "<0x6C><0x79>": 344,
  "<0x72><0x61><0x6E>": 345,
  "<0x72><0x61><0x6E><0x73>": 346,
  "<0x69><0x74><0x68>": 347,
  "<0x6F><0x74>": 348,
  "<0x69><0x7A>": 349,
  "<0x6F><0x72><0x6B>": 350,
  "<0x20><0x68>": 351,
  "<0x20><0x28>": 352,
  "<0x69><0x66>": 353,
  "<0x20><0x61><0x63>": 354,
  "<0x61><0x62>": 355,
  "<0x20><0x73><0x74>": 356,
  "<0x74><0x69><0x6F><0x6E><0x73>": 357,
  "<0x65><0x61><0x6E>": 358,
  "<0x20><0x63><0x6F><0x6D><0x70><0x75><0x74>": 359,
  "<0x20><0x6D><0x65><0x6D><0x6F><0x72><0x79>": 360,
  "<0x20><0x76>": 361,
  "<0x20><0x6F><0x66>": 362,
  "<0x72><0x65>": 363,
  "<0x61><0x73>": 364,
  "<0x75><0x63>": 365,
  "<0x69><0x73><0x74>": 366,
  "<0x20><0x73><0x65><0x61><0x72>": 367,
  "<0x20><0x73><0x65><0x61><0x72><0x63><0x68>": 368,
  "<0x20><0x62><0x79>": 369,
  "<0x20><0x73><0x79>": 370,
  "<0x20><0x67>": 371,
  "<0x75><0x6E>": 372,
  "<0x20><0x77><0x69><0x74><0x68>": 373,
  "<0x20><0x72><0x6F>": 374,
  "<0x61><0x72><0x79>": 375,
  "<0x20><0x6D><0x65><0x61><0x6E>": 376,
  "<0x61><0x72><0x65>": 377,
  "<0x65><0x74><0x77>": 378,
  "<0x70><0x6C>": 379,
  "<0x20><0x66><0x69>": 380,
  "<0x65><0x6D><0x65><0x6E><0x74>": 381,
  "<0x20><0x65><0x78>": 382,
  "<0x20><0x6F><0x72>": 383,
  "<0x76><0x65><0x72>": 384,
  "<0x61><0x6D>": 385,
  "<0x20><0x77><0x68>": 386,
  "<0x74><0x69><0x6D>": 387,
  "<0x74><0x69><0x6D><0x65>": 388,
  "<0x74><0x68>": 389,
  "<0x20><0x49>": 390,
  "<0x20><0x3D>": 391,
  "<0x4E><0x6F><0x72><0x6D>": 392,
  "<0x0A><0x20><0x20>": 393,
  "<0x20><0x61><0x72>": 394,
  "<0x65><0x6E><0x63><0x65>": 395,
  "<0x20><0x66><0x72><0x6F>": 396,
  "<0x20><0x66><0x72><0x6F><0x6D>": 397,
  "<0x20><0x75>": 398,
  "<0x20><0x54><0x68><0x65>": 399,
  "<0x20><0x6D><0x6F><0x64>": 400,
  "<0x76><0x65>": 401,
  "<0x6F><0x73><0x69>": 402,
  "<0x61><0x79>": 403,
  "<0x61><0x6C><0x69><0x7A>": 404,
  "<0x20><0x53>": 405,
  "<0x4C><0x55>": 406,
  "<0x65><0x74><0x77><0x6F><0x72><0x6B>": 407,
  "<0x20><0x70><0x72><0x6F><0x76><0x69><0x64>": 408,
  "<0x70><0x6C><0x69><0x63>": 409,
  "<0x70><0x6C><0x69><0x63><0x61><0x74><0x69><0x6F><0x6E>": 410,
  "<0x63><0x65><0x73><0x73>": 411,
  "<0x53><0x49>": 412,
  "<0x20><0x6C><0x69><0x6E>": 413,
  "<0x20><0x74><0x72><0x61><0x6E><0x73>": 414,
  "<0x20><0x70><0x72>": 415,
  "<0x20><0x74><0x68>": 416,
  "<0x65><0x6C><0x69>": 417,
  "<0x62><0x6F><0x6E>": 418,
  "<0x69><0x65><0x6E><0x74>": 419,
  "<0x61><0x6E><0x74>": 420,
  "<0x61><0x69><0x6E>": 421,
  "<0x69><0x6D>": 422,
  "<0x75><0x6D>": 423,
  "<0x6F><0x67>": 424,
  "<0x20><0x50>": 425,
  "<0x65><0x61><0x72>": 426,
  "<0x6F><0x6C>": 427,
  "<0x66><0x69><0x63>": 428,
  "<0x69><0x67>": 429,
  "<0x20><0x73><0x79><0x73><0x74>": 430,
  "<0x20><0x73><0x79><0x73><0x74><0x65><0x6D>": 431,
  "<0x20><0x64><0x65><0x76>": 432,
  "<0x61><0x6E><0x67>": 433,
  "<0x61><0x67><0x65>": 434,
  "<0x20><0x6D><0x6F><0x64><0x65><0x6C>": 435,
  "<0x20><0x56>": 436,
  "<0x66><0x6F><0x72><0x6D>": 437,
  "<0x20><0x70><0x6F><0x73><0x69>": 438,
  "<0x64><0x69><0x6E><0x67>": 439,
  "<0x20><0x73><0x71><0x75>": 440,
  "<0x20><0x6E><0x6F><0x72><0x6D>": 441,
  "<0x20><0x6E><0x6F><0x72><0x6D><0x61><0x6C><0x69><0x7A>": 442,
  "<0x20><0x6E><0x65><0x74><0x77><0x6F><0x72><0x6B>": 443,
  "<0x20><0x6D><0x61><0x6E>": 444,
  "<0x20><0x6D><0x61><0x6E><0x61><0x67>": 445,
  "<0x20><0x70><0x72><0x6F><0x76><0x69><0x64><0x65><0x73>": 446,
  "<0x65><0x72><0x76>": 447,
  "<0x20><0x61><0x70>": 448,
  "<0x20><0x61><0x70><0x70><0x6C><0x69><0x63><0x61><0x74><0x69><0x6F><0x6E>": 449,
  "<0x20><0x6B>": 450,
  "<0x20><0x61><0x6C>": 451,
  "<0x6F><0x63>": 452,
  "<0x20><0x4E>": 453,
  "<0x20><0x63><0x6F><0x6E><0x6E>": 454,
  "<0x20><0x63><0x6F><0x6E><0x6E><0x65><0x63>": 455,
  "<0x20><0x64><0x61><0x74>": 456,
  "<0x20><0x64><0x61><0x74><0x61>": 457,
  "<0x6F><0x72><0x74>": 458,
  "<0x20><0x54><0x43>": 459,
  "<0x20><0x54><0x43><0x50>": 460,
  "<0x61><0x62><0x6C><0x65>": 461,
  "<0x64><0x65><0x72>": 462,
  "<0x76><0x65><0x72><0x79>": 463,
  "<0x73><0x69><0x6F><0x6E>": 464,
  "<0x61><0x63><0x6B>": 465,
  "<0x61><0x78>": 466,
  "<0x20><0x74><0x69><0x6D><0x65>": 467,
  "<0x20><0x63><0x6F><0x6D><0x70><0x6C><0x65>": 468,
  "<0x20><0x63><0x6F><0x6D><0x70><0x6C><0x65><0x78>": 469,
  "<0x69><0x74><0x79>": 470,
  "<0x75><0x6E><0x63>": 471,
  "<0x66><0x65><0x72>": 472,
  "<0x65><0x70>": 473,
  "<0x73><0x73>": 474,
  "<0x20><0x63><0x6F><0x6E><0x74>": 475,
  "<0x20><0x65><0x6C>": 476,
  "<0x20><0x65><0x6C><0x65><0x6D><0x65><0x6E><0x74>": 477,
  "<0x20><0x64><0x69>": 478,
  "<0x55><0x53>": 479,
  "<0x55><0x53><0x45>": 480,
  "<0x55><0x53><0x45><0x52>": 481,
  "<0x20><0x3C>": 482,
  "<0x41><0x53>": 483,
  "<0x41><0x53><0x53><0x49>": 484,
  "<0x41><0x53><0x53><0x49><0x53>": 485,
  "<0x41><0x53><0x53><0x49><0x53><0x54>": 486,
  "<0x41><0x53><0x53><0x49><0x53><0x54><0x41>": 487,
  "<0x41><0x53><0x53><0x49><0x53><0x54><0x41><0x4E>": 488,
  "<0x41><0x53><0x53><0x49><0x53><0x54><0x41><0x4E><0x54>": 489,
  "<0x62><0x6F><0x6E><0x61><0x63>": 490,
  "<0x62><0x6F><0x6E><0x61><0x63><0x63>": 491,
  "<0x62><0x6F><0x6E><0x61><0x63><0x63><0x69>": 492,
  "<0x0A><0x20><0x20><0x20>": 493,
  "<0x20><0x31>": 494,
  "<0x45><0x59>": 495,
  "<0x45><0x59><0x52>": 496,
  "<0x45><0x59><0x52><0x41>": 497,
  "<0x20><0x6C><0x61><0x6E><0x67>": 498,
  "<0x20><0x6C><0x61><0x6E><0x67><0x75>": 499,
  "<0x20><0x6C><0x61><0x6E><0x67><0x75><0x61><0x67><0x65>": 500,
  "<0x20><0x70><0x6F><0x73><0x69><0x74><0x69><0x6F><0x6E>": 501,
  "<0x20><0x65><0x6D>": 502,
  "<0x62><0x65><0x64>": 503,
  "<0x62><0x65><0x64><0x64><0x69><0x6E><0x67>": 504,
  "<0x20><0x72><0x6F><0x6F><0x74>": 505,
  "<0x20><0x73><0x71><0x75><0x61><0x72><0x65>": 506,
  "<0x20><0x6C><0x61><0x79>": 507,
  "<0x77><0x69>": 508,
  "<0x77><0x69><0x47>": 509,
  "<0x77><0x69><0x47><0x4C><0x55>": 510,
  "<0x61><0x72><0x64>": 511,
  "<0x70><0x65><0x72>": 512,
  "<0x20><0x63><0x6F><0x6D>": 513,
  "<0x69><0x63><0x65><0x73>": 514,
  "<0x72><0x61><0x6D>": 515,
  "<0x64><0x65>": 516,
  "<0x65><0x72><0x6E>": 517,
  "<0x69><0x72>": 518,
  "<0x20><0x61><0x6C><0x6C>": 519,
  "<0x61><0x74><0x65>": 520,
  "<0x70><0x74>": 521,
  "<0x20><0x70><0x72><0x65><0x73>": 522,
  "<0x69><0x6D><0x70>": 523,
  "<0x69><0x6D><0x70><0x6C>": 524,
  "<0x69><0x65><0x73>": 525,
  "<0x20><0x6F><0x72><0x64><0x65><0x72>": 526,
  "<0x20><0x64><0x65><0x6C><0x69>": 527,
  "<0x20><0x64><0x65><0x6C><0x69><0x76><0x65><0x72><0x79>": 528,
  "<0x20><0x55>": 529,
  "<0x20><0x55><0x44>": 530,
  "<0x20><0x55><0x44><0x50>": 531,
  "<0x20><0x63><0x6F><0x6E><0x6E><0x65><0x63><0x74><0x69><0x6F><0x6E>": 532,
  "<0x20><0x65><0x66>": 533,
  "<0x20><0x65><0x66><0x66><0x69><0x63>": 534,
  "<0x20><0x65><0x66><0x66><0x69><0x63><0x69><0x65><0x6E><0x74>": 535,
  "<0x20><0x65><0x6E>": 536,
  "<0x29><0x2C>": 537,
  "<0x20><0x6C><0x69><0x73><0x74>": 538,
  "<0x73><0x65><0x72>": 539,
  "<0x6E><0x6F><0x77>": 540,
  "<0x69><0x6E><0x61><0x72><0x79>": 541,
  "<0x71><0x75><0x65><0x72>": 542,
  "<0x20><0x63><0x6F><0x6D><0x70><0x6C><0x65><0x78><0x69><0x74><0x79>": 543,
  "<0x20><0x66><0x75><0x6E><0x63>": 544,
  "<0x79><0x74><0x68>": 545,
  "<0x79><0x74><0x68><0x6F><0x6E>": 546,
  "<0x69><0x67><0x68>": 547,
  "<0x20><0x64><0x79>": 548,
  "<0x20><0x64><0x79><0x6E>": 549,
  "<0x20><0x64><0x79><0x6E><0x61><0x6D>": 550,
  "<0x20><0x64><0x79><0x6E><0x61><0x6D><0x69><0x63>": 551,
  "<0x65><0x63><0x74>": 552,
  "<0x20><0x4C>": 553,
  "<0x69><0x73><0x65>": 554,
  "<0x75><0x65><0x73>": 555,
  "<0x20><0x69><0x66>": 556,
  "<0x20><0x32>": 557,
  "<0x20><0x64><0x65><0x65><0x70>": 558,
  "<0x6E><0x69><0x6E><0x67>": 559,
  "<0x20><0x73><0x65><0x71><0x75>": 560,
  "<0x20><0x73><0x65><0x71><0x75><0x65><0x6E><0x63><0x65>": 561,
  "<0x20><0x2A>": 562,
  "<0x20><0x52>": 563,
  "<0x74><0x69><0x76><0x65>": 564,
  "<0x20><0x61><0x63><0x72><0x6F>": 565,
  "<0x20><0x61><0x63><0x72><0x6F><0x73><0x73>": 566,
  "<0x20><0x72><0x65>": 567,
  "<0x20><0x6C><0x69><0x6E><0x65><0x61><0x72>": 568,
  "<0x20><0x2B>": 569,
  "<0x29><0x2E>": 570,
  "<0x20><0x57>": 571,
  "<0x4D><0x53>": 572,
  "<0x4D><0x53><0x4E><0x6F><0x72><0x6D>": 573,
  "<0x20><0x77><0x6F><0x72><0x6B>": 574,
  "<0x20><0x64><0x69><0x76><0x69><0x64>": 575,
  "<0x20><0x49><0x74>": 576,
  "<0x20><0x68><0x61><0x6C>": 577,
  "<0x20><0x68><0x61><0x6C><0x66>": 578,
  "<0x65><0x6E><0x74><0x69>": 579,
  "<0x20><0x73><0x75>": 580,
  "<0x20><0x66><0x69><0x62><0x6F><0x6E><0x61><0x63><0x63><0x69>": 581,
  "<0x20><0x4E><0x6F><0x6E>": 582,
  "<0x20><0x4E><0x6F><0x6E><0x65>": 583,
  "<0x20><0x2D>": 584,
  "<0x20><0x75><0x70>": 585,
  "<0x6F><0x72><0x65>": 586,
  "<0x20><0x56><0x45><0x59><0x52><0x41>": 587,
  "<0x20><0x61><0x75><0x74>": 588,
  "<0x72><0x65><0x73><0x73>": 589,
  "<0x20><0x54><0x72><0x61><0x6E><0x73>": 590,
  "<0x20><0x54><0x72><0x61><0x6E><0x73><0x66><0x6F><0x72><0x6D>": 591,
  "<0x20><0x72><0x6F><0x74>": 592,
  "<0x20><0x65><0x6D><0x62><0x65><0x64><0x64><0x69><0x6E><0x67>": 593,
  "<0x20><0x6E><0x6F><0x72><0x6D><0x61><0x6C><0x69><0x7A><0x61><0x74><0x69><0x6F><0x6E>": 594,
  "<0x20><0x53><0x77><0x69><0x47><0x4C><0x55>": 595,
  "<0x20><0x66><0x65>": 596,
  "<0x20><0x6E><0x65><0x74><0x77><0x6F><0x72><0x6B><0x73>": 597,
  "<0x61><0x74><0x69><0x6E><0x67>": 598,
  "<0x77><0x61><0x72><0x65>": 599,
  "<0x20><0x72><0x65><0x73>": 600,
  "<0x20><0x72><0x65><0x73><0x6F>": 601,
  "<0x20><0x72><0x65><0x73><0x6F><0x75><0x72>": 602,
  "<0x20><0x72><0x65><0x73><0x6F><0x75><0x72><0x63>": 603,
  "<0x20><0x72><0x65><0x73><0x6F><0x75><0x72><0x63><0x65><0x73>": 604,
  "<0x20><0x70><0x72><0x6F><0x67>": 605,
  "<0x20><0x70><0x72><0x6F><0x67><0x72><0x61><0x6D>": 606,
  "<0x20><0x4B>": 607,
  "<0x65><0x79>": 608,
  "<0x65><0x6E><0x74><0x73>": 609,
  "<0x63><0x6C>": 610,
  "<0x20><0x6D><0x61><0x6E><0x61><0x67><0x65><0x72>": 611,
  "<0x20><0x66><0x69><0x6C><0x65>": 612,
  "<0x20><0x4D>": 613,
  "<0x20><0x75><0x73>": 614,
  "<0x75><0x61><0x6C>": 615,
  "<0x20><0x73><0x70>": 616,
  "<0x65><0x6C><0x79>": 617,
  "<0x6F><0x75>": 618,
  "<0x20><0x63><0x6F><0x6D><0x70><0x75><0x74><0x69><0x6E><0x67>": 619,
  "<0x20><0x64><0x65><0x66>": 620,
  "<0x20><0x64><0x65><0x66><0x69><0x6E>": 621,
  "<0x20><0x6C><0x61><0x79><0x65><0x72><0x73>": 622,
  "<0x20><0x6C><0x69><0x6E><0x6B>": 623,
  "<0x20><0x74><0x72><0x61><0x6E><0x73><0x70>": 624,
  "<0x20><0x74><0x72><0x61><0x6E><0x73><0x70><0x6F><0x72><0x74>": 625,
  "<0x49><0x50>": 626,
  "<0x20><0x73><0x69><0x6D><0x70><0x6C>": 627,
  "<0x20><0x73><0x69><0x6D><0x70><0x6C><0x69><0x66>": 628,
  "<0x20><0x73><0x69><0x6D><0x70><0x6C><0x69><0x66><0x69><0x65><0x73>": 629,
  "<0x20><0x74><0x68><0x69><0x73>": 630,
  "<0x20><0x61><0x63><0x63><0x65><0x73><0x73>": 631,
  "<0x20><0x72><0x65><0x6C><0x69>": 632,
  "<0x20><0x72><0x65><0x6C><0x69><0x61><0x62><0x6C><0x65>": 633,
  "<0x20><0x73><0x74><0x72><0x65>": 634,
  "<0x20><0x73><0x74><0x72><0x65><0x61><0x6D>": 635,
  "<0x65><0x74><0x73>": 636,
  "<0x20><0x6C><0x6F><0x77>": 637,
  "<0x20><0x63><0x6F><0x6E><0x6E><0x65><0x63><0x74><0x69><0x6F><0x6E><0x6C>": 638,
  "<0x20><0x63><0x6F><0x6E><0x6E><0x65><0x63><0x74><0x69><0x6F><0x6E><0x6C><0x65><0x73><0x73>": 639,
  "<0x6D><0x69><0x73>": 640,
  "<0x6D><0x69><0x73><0x73><0x69><0x6F><0x6E>": 641,
  "<0x67><0x6F><0x72>": 642,
  "<0x67><0x6F><0x72><0x69><0x74><0x68>": 643,
  "<0x67><0x6F><0x72><0x69><0x74><0x68><0x6D>": 644,
  "<0x20><0x73><0x74><0x72>": 645,
  "<0x75><0x63><0x74>": 646,
  "<0x20><0x73><0x6F>": 647,
  "<0x20><0x73><0x6F><0x66>": 648,
  "<0x20><0x73><0x6F><0x66><0x74>": 649,
  "<0x20><0x41>": 650,
  "<0x20><0x61><0x72><0x72><0x61>": 651,
  "<0x20><0x61><0x72><0x72><0x61><0x79>": 652,
  "<0x20><0x77><0x68><0x69>": 653,
  "<0x20><0x77><0x68><0x69><0x6C><0x65>": 654,
  "<0x20><0x69><0x6E><0x73><0x65><0x72>": 655,
  "<0x20><0x69><0x6E><0x73><0x65><0x72><0x74><0x69><0x6F><0x6E><0x73>": 656,
  "<0x20><0x64><0x65><0x6C>": 657,
  "<0x20><0x64><0x65><0x6C><0x65>": 658,
  "<0x20><0x64><0x65><0x6C><0x65><0x74><0x69><0x6F><0x6E><0x73>": 659,
  "<0x20><0x61><0x74>": 660,
  "<0x20><0x6B><0x6E><0x6F><0x77>": 661,
  "<0x20><0x6B><0x6E><0x6F><0x77><0x6E>": 662,
  "<0x20><0x42>": 663,
  "<0x20><0x42><0x69><0x6E><0x61><0x72><0x79>": 664,
  "<0x20><0x6D><0x61><0x69><0x6E>": 665,
  "<0x20><0x6D><0x61><0x69><0x6E><0x74>": 666,
  "<0x20><0x6D><0x61><0x69><0x6E><0x74><0x61><0x69><0x6E>": 667,
  "<0x20><0x73><0x6F><0x72><0x74>": 668,
  "<0x20><0x73><0x6F><0x72><0x74><0x65><0x64>": 669,
  "<0x20><0x61><0x6C><0x6C><0x6F><0x77>": 670,
  "<0x20><0x6D><0x69><0x6E>": 671,
  "<0x20><0x6D><0x69><0x6E><0x69><0x6D>": 672,
  "<0x20><0x70><0x72><0x65><0x64>": 673,
  "<0x20><0x73><0x75><0x63>": 674,
  "<0x20><0x73><0x75><0x63><0x63><0x65><0x73><0x73>": 675,
  "<0x20><0x71><0x75><0x65><0x72>": 676,
  "<0x6C><0x6F><0x67>": 677,
  "<0x20><0x77><0x68><0x65><0x6E>": 678,
  "<0x63><0x65><0x64>": 679,
  "<0x20><0x48>": 680,
  "<0x61><0x73><0x68>": 681,
  "<0x20><0x74><0x61><0x62>": 682,
  "<0x20><0x74><0x61><0x62><0x6C>": 683,
  "<0x20><0x74><0x61><0x62><0x6C><0x65><0x73>": 684,
  "<0x70><0x73>": 685,
  "<0x72><0x79>": 686,
  "<0x72><0x79><0x70><0x74>": 687,
  "<0x72><0x79><0x70><0x74><0x6F><0x67>": 688,
  "<0x72><0x79><0x70><0x74><0x6F><0x67><0x72><0x61>": 689,
  "<0x72><0x79><0x70><0x74><0x6F><0x67><0x72><0x61><0x70>": 690,
  "<0x72><0x79><0x70><0x74><0x6F><0x67><0x72><0x61><0x70><0x68>": 691,
  "<0x72><0x79><0x70><0x74><0x6F><0x67><0x72><0x61><0x70><0x68><0x69><0x63>": 692,
  "<0x20><0x69><0x74>": 693,
  "<0x20><0x73><0x79><0x6E>": 694,
  "<0x20><0x73><0x79><0x6E><0x74>": 695,
  "<0x20><0x73><0x79><0x6E><0x74><0x61><0x78>": 696,
  "<0x20><0x50><0x79><0x74><0x68><0x6F><0x6E>": 697,
  "<0x20><0x46>": 698,
  "<0x61><0x73><0x73>": 699,
  "<0x20><0x61><0x73>": 700,
  "<0x68><0x65><0x6E>": 701,
  "<0x20><0x6E><0x65>": 702,
  "<0x20><0x6F><0x6E>": 703,
  "<0x20><0x76><0x61><0x6C>": 704,
  "<0x20><0x78>": 705,
  "<0x20><0x6E><0x75><0x6D>": 706,
  "<0x20><0x6E><0x75><0x6D><0x62>": 707,
  "<0x20><0x6E><0x75><0x6D><0x62><0x65><0x72><0x73>": 708,
  "<0x20><0x30>": 709,
  "<0x74><0x65><0x6E>": 710,
  "<0x74><0x65><0x6E><0x74><0x69><0x6F><0x6E>": 711,
  "<0x20><0x6C><0x65><0x61><0x72>": 712,
  "<0x75><0x72><0x61><0x6C>": 713,
  "<0x74><0x73>": 714,
  "<0x61><0x6C><0x6C><0x79>": 715,
  "<0x20><0x73><0x63>": 716,
  "<0x20><0x63><0x6F><0x6D><0x70><0x75><0x74><0x65><0x73>": 717,
  "<0x20><0x45>": 718,
  "<0x52><0x6F>": 719,
  "<0x20><0x72><0x65><0x6C>": 720,
  "<0x20><0x70><0x6F><0x73><0x69><0x74><0x69><0x6F><0x6E><0x61><0x6C>": 721,
  "<0x20><0x70><0x6C>": 722,
  "<0x20><0x70><0x6C><0x61><0x6E>": 723,
  "<0x20><0x70><0x72><0x65><0x73><0x65><0x72><0x76>": 724,
  "<0x61><0x6E><0x63><0x65>": 725,
  "<0x61><0x74><0x69><0x6F><0x6E><0x73>": 726,
  "<0x20><0x63><0x6F><0x6E><0x74><0x65>": 727,
  "<0x20><0x63><0x6F><0x6E><0x74><0x65><0x78>": 728,
  "<0x20><0x63><0x6F><0x6E><0x74><0x65><0x78><0x74>": 729,
  "<0x61><0x74><0x65><0x64>": 730,
  "<0x20><0x76><0x61><0x72>": 731,
  "<0x20><0x76><0x61><0x72><0x69>": 732,
  "<0x20><0x63><0x6F><0x6D><0x62>": 733,
  "<0x20><0x63><0x6F><0x6D><0x62><0x69><0x6E>": 734,
  "<0x20><0x53><0x69>": 735,
  "<0x20><0x53><0x69><0x4C><0x55>": 736,
  "<0x20><0x61><0x63><0x74><0x69>": 737,
  "<0x20><0x61><0x63><0x74><0x69><0x76>": 738,
  "<0x20><0x66><0x75><0x6E><0x63><0x74><0x69><0x6F><0x6E>": 739,
  "<0x77><0x69><0x73><0x65>": 740,
  "<0x75><0x6C>": 741,
  "<0x20><0x74><0x72><0x61>": 742,
  "<0x20><0x74><0x72><0x61><0x69><0x6E>": 743,
  "<0x20><0x74><0x72><0x61><0x69><0x6E><0x69><0x6E><0x67>": 744,
  "<0x75><0x72><0x65>": 745,
  "<0x20><0x74><0x6F><0x6F><0x6C>": 746,
  "<0x20><0x65><0x78><0x65><0x63>": 747,
  "<0x75><0x65>": 748,
  "<0x61><0x73><0x74>": 749,
  "<0x61><0x6E><0x64>": 750,
  "<0x20><0x49><0x66>": 751,
  "<0x20><0x74><0x61><0x72>": 752,
  "<0x20><0x74><0x61><0x72><0x67>": 753,
  "<0x20><0x74><0x61><0x72><0x67><0x65><0x74>": 754,
  "<0x20><0x6D><0x69><0x64>": 755,
  "<0x20><0x6D><0x69><0x64><0x64>": 756,
  "<0x20><0x6D><0x69><0x64><0x64><0x6C><0x65>": 757,
  "<0x20><0x74><0x68><0x61><0x6E>": 758,
  "<0x20><0x63><0x6F><0x6E><0x74><0x69><0x6E>": 759,
  "<0x20><0x63><0x6F><0x6E><0x74><0x69><0x6E><0x75><0x65><0x73>": 760,
  "<0x20><0x65><0x78><0x70>": 761,
  "<0x20><0x65><0x78><0x70><0x6F><0x6E>": 762,
  "<0x20><0x65><0x78><0x70><0x6F><0x6E><0x65><0x6E><0x74><0x69>": 763,
  "<0x20><0x64><0x69><0x66>": 764,
  "<0x20><0x64><0x69><0x66><0x66><0x65><0x72>": 765,
  "<0x20><0x50><0x72><0x6F>": 766,
  "<0x20><0x50><0x72><0x6F><0x74>": 767,
  "<0x20><0x50><0x72><0x6F><0x74><0x6F><0x63>": 768,
  "<0x20><0x50><0x72><0x6F><0x74><0x6F><0x63><0x6F><0x6C>": 769,
  "<0x20><0x67><0x75>": 770,
  "<0x20><0x67><0x75><0x61><0x72>": 771,
  "<0x20><0x67><0x75><0x61><0x72><0x61><0x6E><0x74>": 772,
  "<0x20><0x67><0x75><0x61><0x72><0x61><0x6E><0x74><0x65>": 773,
  "<0x20><0x70><0x61><0x63><0x6B>": 774,
  "<0x20><0x69><0x64>": 775,
  "<0x69><0x6C>": 776,
  "<0x69><0x67><0x68><0x74>": 777,
  "<0x20><0x64><0x6F>": 778,
  "<0x20><0x64><0x6F><0x65><0x73>": 779,
  "<0x20><0x6D><0x65><0x6D><0x6F><0x69><0x7A>": 780,
  "<0x69><0x63><0x74>": 781,
  "<0x0A><0x20><0x20><0x20><0x20>": 782,
  "<0x0A><0x20><0x20><0x20><0x20><0x20><0x20>": 783,
  "<0x0A><0x20><0x20><0x20><0x20><0x20><0x20><0x20>": 784,
  "<0x20><0x72><0x65><0x74>": 785,
  "<0x20><0x72><0x65><0x74><0x75><0x72>": 786,
  "<0x20><0x72><0x65><0x74><0x75><0x72><0x6E>": 787,
  "<0x68><0x69><0x73>": 788,
  "<0x20><0x72><0x65><0x64>": 789,
  "<0x20><0x72><0x65><0x64><0x75><0x63>": 790,
  "<0x20><0x72><0x65><0x64><0x75><0x63><0x65><0x73>": 791,
  "<0x20><0x52><0x4D><0x53><0x4E><0x6F><0x72><0x6D>": 792,
  "<0x20><0x4C><0x61><0x79>": 793,
  "<0x20><0x4C><0x61><0x79><0x65><0x72>": 794,
  "<0x20><0x4C><0x61><0x79><0x65><0x72><0x4E><0x6F><0x72><0x6D>": 795
}